<pad>	0
<unk>	0
<s>	0
</s>	0
<en2ig>	0
<ig2en>	0
he	-0
▁t	-1
ar	-2
▁a	-3
er	-4
▁n	-5
▁T	-6
▁The	-7
▁m	-8
ny	-9
ri	-10
▁ọ	-11
is	-12
▁g	-13
hụ	-14
aa	-15
ed	-16
ay	-17
in	-18
st	-19
day	-20
▁to	-21
an	-22
gb	-23
▁y	-24
rụ	-25
▁ụ	-26
▁f	-27
▁is	-28
▁na	-29
▁I	-30
kw	-31
▁w	-32
nye	-33
▁O	-34
▁s	-35
ing	-36
▁b	-37
▁e	-38
▁Onye	-39
▁G	-40
▁c	-41
▁u	-42
at	-43
arm	-44
▁farm	-45
en	-46
▁the	-47
kụ	-48
or	-49
ra	-50
est	-51
gbo	-52
▁ọrụ	-53
et	-54
ara	-55
▁taa	-56
▁today	-57
ce	-58
hi	-59
ka	-60
oo	-61
ou	-62
▁ugbo	-63
▁farmer	-64
ke	-65
ma	-66
▁M	-67
▁d	-68
▁p	-69
aahụ	-70
▁ahụ	-71
▁ụny	-72
erday	-73
▁yest	-74
▁ụnyaahụ	-75
▁yesterday	-76
re	-77
▁o	-78
ent	-79
arri	-80
▁A	-81
ere	-82
am	-83
ho	-84
ro	-85
▁N	-86
race	-87
▁Grace	-88
gw	-89
▁Ọ	-90
ary	-91
ji	-92
te	-93
▁D	-94
iri	-95
▁am	-96
▁ri	-97
▁Mary	-98
gh	-99
ta	-100
▁K	-101
ant	-102
kwọ	-103
kwụ	-104
▁st	-105
ai	-106
ne	-107
ụt	-108
▁r	-109
gbọ	-110
her	-111
ood	-112
▁bụ	-113
▁do	-114
▁ji	-115
▁pl	-116
▁yam	-117
▁akwụ	-118
▁plant	-119
▁akwụkwọ	-120
fe	-121
ga	-122
kị	-123
la	-124
ly	-125
na	-126
ze	-127
ịa	-128
▁P	-129
▁Ụ	-130
▁Nw	-131
▁ah	-132
aize	-133
▁ate	-134
▁ọka	-135
▁gara	-136
▁maize	-137
bi	-138
ea	-139
id	-140
kp	-141
ld	-142
ll	-143
lọ	-144
me	-145
ut	-146
▁C	-147
▁E	-148
▁H	-149
▁S	-150
▁h	-151
▁z	-152
ano	-153
are	-154
ght	-155
hio	-156
ook	-157
row	-158
▁go	-159
▁kụ	-160
eter	-161
▁Ana	-162
▁are	-163
▁bou	-164
▁you	-165
▁zụt	-166
▁ọma	-167
hioma	-168
▁Kano	-169
▁ahịa	-170
▁kụrụ	-171
▁riri	-172
▁Peter	-173
▁garri	-174
▁Chioma	-175
▁bought	-176
▁zụtara	-177
▁planted	-178
ct	-179
ee	-180
es	-181
fu	-182
mp	-183
rọ	-184
ud	-185
wọ	-186
▁W	-187
▁i	-188
ala	-189
der	-190
ọkị	-191
▁He	-192
▁nw	-193
▁ta	-194
▁we	-195
arly	-196
ated	-197
ctor	-198
entị	-199
fufe	-200
here	-201
hone	-202
wọrọ	-203
▁She	-204
▁ekw	-205
▁tre	-206
▁ọkụ	-207
ooked	-208
ọkịta	-209
▁siri	-210
▁stud	-211
gbọala	-212
▁early	-213
▁going	-214
▁gwọrọ	-215
▁phone	-216
▁Dọkịta	-217
▁cooked	-218
▁doctor	-219
▁ekwentị	-220
▁treated	-221
av	-222
ge	-223
gụ	-224
it	-225
le	-226
li	-227
pa	-228
rị	-229
si	-230
we	-231
ans	-232
any	-233
ati	-234
chi	-235
gwa	-236
his	-237
mor	-238
oge	-239
old	-240
ubi	-241
ved	-242
▁be	-243
▁ga	-244
▁ho	-245
▁ka	-246
▁my	-247
▁ụt	-248
avid	-249
kapa	-250
▁car	-251
▁nke	-252
▁osi	-253
▁rut	-254
▁tra	-255
▁agwa	-256
▁arri	-257
▁echi	-258
▁good	-259
▁rere	-260
▁rice	-261
▁sold	-262
▁went	-263
morrow	-264
▁David	-265
▁Garri	-266
▁beans	-267
▁rutere	-268
▁trader	-269
▁arrived	-270
▁osikapa	-271
▁student	-272
▁tomorrow	-273
as	-274
ch	-275
eg	-276
hu	-277
lo	-278
on	-279
ps	-280
se	-281
▁v	-282
▁ị	-283
aga	-284
agụ	-285
akụ	-286
arv	-287
atọ	-288
gwe	-289
han	-290
ill	-291
ind	-292
ort	-293
pen	-294
ter	-295
▁My	-296
▁dị	-297
▁hụ	-298
▁li	-299
▁re	-300
isit	-301
rops	-302
stes	-303
▁Ihe	-304
▁Nke	-305
▁meg	-306
▁mkp	-307
▁tea	-308
▁wet	-309
▁ụtọ	-310
ested	-311
▁Good	-312
▁This	-313
▁harv	-314
▁open	-315
▁well	-316
▁will	-317
▁wind	-318
isited	-319
▁Ifufe	-320
▁crops	-321
▁ọkụkụ	-322
▁tastes	-323
▁wetara	-324
▁meghere	-325
▁visited	-326
▁Ụgbọala	-327
▁harvested	-328
ab	-329
ad	-330
dị	-331
dụ	-332
fọ	-333
ic	-334
ir	-335
ku	-336
kọ	-337
lu	-338
ng	-339
nị	-340
ot	-341
yp	-342
zi	-343
▁B	-344
agb	-345
akị	-346
bee	-347
eak	-348
eto	-349
fọd	-350
ghị	-351
gwụ	-352
hat	-353
iab	-354
ine	-355
irp	-356
kes	-357
low	-358
mpu	-359
oke	-360
omp	-361
ork	-362
orm	-363
ver	-364
xam	-365
ịnị	-366
ịrị	-367
ụlọ	-368
ụtụ	-369
▁ne	-370
▁sp	-371
anne	-372
anwe	-373
anya	-374
anyị	-375
cher	-376
etes	-377
ging	-378
hild	-379
hoid	-380
huga	-381
kuzi	-382
ning	-383
tern	-384
uter	-385
ziri	-386
ịfọd	-387
▁Nwa	-388
▁aga	-389
▁ala	-390
▁elu	-391
▁mma	-392
▁oke	-393
▁typ	-394
▁Ụlọ	-395
▁ụlọ	-396
ading	-397
akịrị	-398
ather	-399
ation	-400
mputa	-401
xamin	-402
▁Ebee	-403
▁Gịnị	-404
▁Igbo	-405
▁Nwat	-406
▁What	-407
▁airp	-408
▁chan	-409
▁comp	-410
▁diab	-411
▁grow	-412
▁home	-413
▁hụrụ	-414
▁name	-415
▁onye	-416
▁work	-417
▁ọgwụ	-418
▁ụgbọ	-419
▁Where	-420
▁child	-421
▁ifufe	-422
▁likes	-423
▁nkuzi	-424
▁shuga	-425
▁speak	-426
▁storm	-427
agbanwe	-428
▁Nwanne	-429
▁examin	-430
▁taịfọd	-431
▁airport	-432
▁growing	-433
▁reading	-434
▁teacher	-435
▁typhoid	-436
▁ụgbọala	-437
▁changing	-438
▁	-439
a	-440
e	-441
r	-442
t	-443
.	-444
n	-445
o	-446
i	-447
h	-448
ụ	-449
y	-450
g	-451
s	-452
d	-453
m	-454
k	-455
ọ	-456
w	-457
u	-458
l	-459
b	-460
T	-461
c	-462
p	-463
ị	-464
f	-465
-	-466
I	-467
O	-468
G	-469
z	-470
v	-471
M	-472
'	-473
A	-474
N	-475
j	-476
Ọ	-477
?	-478
D	-479
K	-480
P	-481
Ụ	-482
C	-483
E	-484
H	-485
S	-486
W	-487
B	-488
x	-489
R	-490
U	-491
Y	-492
Ị	-493
