<pad>	0
<unk>	0
<s>	0
</s>	0
<en2ig>	0
<ig2en>	0
▁a	-0
he	-1
▁n	-2
▁m	-3
▁T	-4
hụ	-5
▁The	-6
▁i	-7
▁t	-8
▁ahụ	-9
er	-10
ar	-11
▁ọ	-12
▁is	-13
kw	-14
▁s	-15
in	-16
▁f	-17
ny	-18
▁c	-19
▁d	-20
ri	-21
▁e	-22
▁na	-23
▁I	-24
rụ	-25
▁A	-26
ed	-27
▁b	-28
▁the	-29
gb	-30
la	-31
or	-32
▁w	-33
▁o	-34
re	-35
at	-36
nt	-37
ing	-38
ere	-39
▁p	-40
▁u	-41
oo	-42
le	-43
ch	-44
▁ụ	-45
nye	-46
ke	-47
as	-48
▁ọrụ	-49
▁O	-50
▁g	-51
hị	-52
ro	-53
▁h	-54
gw	-55
kwụ	-56
ma	-57
na	-58
▁dị	-59
▁Onye	-60
ou	-61
ara	-62
ta	-63
es	-64
▁N	-65
me	-66
▁Ụ	-67
ka	-68
▁Ọ	-69
kwọ	-70
▁Ana	-71
kwụkwọ	-72
on	-73
lọ	-74
▁E	-75
▁far	-76
▁akwụkwọ	-77
▁to	-78
ad	-79
mer	-80
hịa	-81
mp	-82
▁y	-83
gbo	-84
iri	-85
ic	-86
is	-87
▁W	-88
gbọ	-89
kụ	-90
te	-91
▁st	-92
▁nri	-93
et	-94
an	-95
ood	-96
▁ugbo	-97
ji	-98
ent	-99
kp	-100
▁farmer	-101
tụ	-102
ve	-103
zi	-104
▁co	-105
aa	-106
lo	-107
▁S	-108
ay	-109
che	-110
▁nw	-111
ct	-112
dị	-113
gh	-114
ur	-115
us	-116
ll	-117
ot	-118
ee	-119
nyị	-120
▁ma	-121
▁ne	-122
▁re	-123
kọ	-124
mụ	-125
li	-126
zụ	-127
▁ch	-128
▁me	-129
▁my	-130
en	-131
ala	-132
ion	-133
ge	-134
ter	-135
▁ihe	-136
ud	-137
▁food	-138
ra	-139
▁you	-140
▁M	-141
▁We	-142
▁do	-143
ga	-144
it	-145
rọ	-146
bi	-147
ver	-148
▁stud	-149
ịa	-150
▁D	-151
ork	-152
▁comp	-153
gbọala	-154
zọ	-155
▁bus	-156
▁Ụlọ	-157
se	-158
si	-159
ghị	-160
ọrọ	-161
▁am	-162
▁bụ	-163
▁he	-164
▁te	-165
▁Anyị	-166
nụ	-167
▁K	-168
ght	-169
miri	-170
al	-171
il	-172
wa	-173
▁H	-174
tara	-175
▁for	-176
▁mma	-177
am	-178
▁on	-179
▁She	-180
▁ngw	-181
▁student	-182
▁mkp	-183
▁nke	-184
we	-185
gwụ	-186
kwa	-187
ook	-188
▁not	-189
▁work	-190
be	-191
any	-192
est	-193
▁nwere	-194
dụ	-195
hụrụ	-196
▁car	-197
▁pro	-198
▁B	-199
▁G	-200
▁ị	-201
cha	-202
▁He	-203
▁pla	-204
▁ụlọ	-205
▁ọhụrụ	-206
pụ	-207
chi	-208
▁ka	-209
▁has	-210
▁ọkụ	-211
ation	-212
▁need	-213
▁mmiri	-214
▁j	-215
ave	-216
ess	-217
▁an	-218
▁are	-219
▁ahịa	-220
▁C	-221
▁P	-222
day	-223
ome	-224
uru	-225
ache	-226
tụtụ	-227
▁Nwa	-228
▁adị	-229
▁ala	-230
▁chọrọ	-231
hi	-232
ne	-233
ble	-234
▁go	-235
▁gị	-236
ce	-237
fu	-238
ko	-239
▁aka	-240
▁ọma	-241
▁read	-242
ff	-243
je	-244
lu	-245
ly	-246
ru	-247
ụrụ	-248
▁in	-249
▁se	-250
▁we	-251
▁ike	-252
ss	-253
▁k	-254
ool	-255
▁ex	-256
▁ri	-257
kere	-258
very	-259
▁teache	-260
ku	-261
nd	-262
ps	-263
rị	-264
ine	-265
one	-266
ved	-267
▁ga	-268
▁li	-269
▁ya	-270
▁nji	-271
▁wat	-272
fe	-273
ir	-274
pen	-275
row	-276
▁le	-277
▁wa	-278
▁sch	-279
▁was	-280
▁ụzọ	-281
▁water	-282
▁school	-283
go	-284
arụ	-285
chị	-286
her	-287
mpu	-288
oro	-289
ụlọ	-290
▁En	-291
▁ny	-292
▁ta	-293
▁th	-294
kuzi	-295
ning	-296
▁ndị	-297
▁tra	-298
aahịa	-299
mputa	-300
▁your	-301
▁nkuzi	-302
▁teacher	-303
do	-304
du	-305
gba	-306
▁sh	-307
▁have	-308
▁maka	-309
▁ngwa	-310
▁ọgwụ	-311
▁Ụgbọ	-312
▁Ụgbọala	-313
▁ụgbọala	-314
id	-315
ọọ	-316
asị	-317
▁at	-318
here	-319
uter	-320
zụma	-321
▁har	-322
iness	-323
zụmahịa	-324
▁company	-325
▁business	-326
▁computer	-327
ba	-328
jụ	-329
kị	-330
sa	-331
th	-332
kwu	-333
▁ar	-334
▁ro	-335
▁aga	-336
▁eme	-337
▁new	-338
▁plant	-339
▁produ	-340
▁ready	-341
▁njikere	-342
ck	-343
ha	-344
ow	-345
wu	-346
ase	-347
gbu	-348
gwe	-349
rịa	-350
▁de	-351
▁la	-352
▁ph	-353
ctor	-354
▁mor	-355
▁pre	-356
▁farm	-357
▁mkpa	-358
▁product	-359
bụ	-360
pp	-361
to	-362
zu	-363
ṅụ	-364
▁U	-365
▁Ị	-366
ade	-367
ast	-368
eri	-369
nya	-370
rin	-371
▁Bi	-372
▁kọ	-373
▁us	-374
amin	-375
▁Nri	-376
▁bou	-377
▁cro	-378
▁eat	-379
▁arri	-380
▁cook	-381
▁good	-382
▁road	-383
zụtara	-384
▁bought	-385
▁examin	-386
▁students	-387
ak	-388
ld	-389
gwọ	-390
▁be	-391
ahịa	-392
ffic	-393
▁hel	-394
▁mar	-395
▁med	-396
▁ọnụ	-397
▁Ụmụ	-398
▁Biko	-399
▁open	-400
▁ụgbọ	-401
▁crops	-402
▁working	-403
ata	-404
eji	-405
ile	-406
ket	-407
low	-408
par	-409
ọkị	-410
▁so	-411
vest	-412
▁Ngw	-413
▁Ple	-414
▁clo	-415
▁day	-416
▁kwa	-417
▁sto	-418
ọkịta	-419
▁siri	-420
▁	-421
e	-422
a	-423
h	-424
n	-425
r	-426
i	-427
.	-428
o	-429
t	-430
ụ	-431
s	-432
m	-433
k	-434
d	-435
ọ	-436
l	-437
g	-438
w	-439
u	-440
y	-441
c	-442
b	-443
ị	-444
T	-445
p	-446
f	-447
I	-448
-	-449
A	-450
z	-451
v	-452
j	-453
O	-454
N	-455
'	-456
Ụ	-457
Ọ	-458
E	-459
W	-460
?	-461
S	-462
M	-463
D	-464
K	-465
H	-466
x	-467
B	-468
G	-469
C	-470
P	-471
ṅ	-472
U	-473
Ị	-474
q	-475
F	-476
L	-477
J	-478
è	-479
R	-480
à	-481
Y	-482
é	-483
ì	-484
í	-485
Ṅ	-486
Ì	-487
ó	-488
Z	-489
V	-490
À	-491
Ò	-492
ò	-493
