<pad>	0
<unk>	0
<s>	0
</s>	0
▁a	-0
er	-1
▁n	-2
▁t	-3
ar	-4
ed	-5
in	-6
ly	-7
me	-8
he	-9
▁T	-10
da	-11
▁s	-12
▁i	-13
ow	-14
▁r	-15
▁o	-16
▁c	-17
te	-18
ea	-19
▁g	-20
om	-21
day	-22
oday	-23
▁na	-24
ter	-25
▁b	-26
kw	-27
▁The	-28
▁P	-29
Ch	-30
▁Ch	-31
lly	-32
or	-33
ri	-34
▁O	-35
▁the	-36
ka	-37
▁ọ	-38
an	-39
es	-40
ti	-41
ra	-42
▁E	-43
▁so	-44
wa	-45
ere	-46
ia	-47
ver	-48
ara	-49
ce	-50
▁h	-51
vi	-52
fu	-53
▁A	-54
▁today	-55
▁ag	-56
▁N	-57
edu	-58
rụ	-59
▁ụ	-60
▁is	-61
ta	-62
ted	-63
as	-64
very	-65
▁D	-66
are	-67
▁Pe	-68
▁Peter	-69
mm	-70
▁Ada	-71
▁e	-72
na	-73
meka	-74
▁Emeka	-75
ary	-76
▁k	-77
▁of	-78
ain	-79
row	-80
oma	-81
iri	-82
bin	-83
binna	-84
▁Obinna	-85
▁al	-86
▁M	-87
▁Mary	-88
inedu	-89
▁Chinedu	-90
se	-91
▁K	-92
edia	-93
tely	-94
▁imm	-95
ediately	-96
▁immediately	-97
we	-98
▁G	-99
way	-100
race	-101
▁Grace	-102
▁again	-103
ic	-104
le	-105
arefu	-106
▁carefu	-107
▁carefully	-108
ma	-109
▁rea	-110
▁really	-111
avi	-112
avid	-113
▁David	-114
ways	-115
▁always	-116
▁d	-117
▁very	-118
ten	-119
▁often	-120
Jo	-121
hn	-122
mes	-123
▁Jo	-124
meti	-125
▁John	-126
metimes	-127
▁sometimes	-128
▁now	-129
ioma	-130
▁Chioma	-131
▁gara	-132
omor	-133
omorrow	-134
li	-135
ind	-136
ny	-137
nye	-138
▁me	-139
▁Now	-140
ji	-141
si	-142
▁Today	-143
tu	-144
ug	-145
ick	-146
uick	-147
uickly	-148
indly	-149
▁Kindly	-150
lea	-151
lease	-152
▁Please	-153
▁Q	-154
▁Quickly	-155
▁Tomorrow	-156
rọ	-157
ọrọ	-158
ch	-159
ll	-160
ụrụ	-161
uter	-162
et	-163
▁in	-164
oo	-165
am	-166
▁p	-167
kwụ	-168
pa	-169
▁ah	-170
any	-171
on	-172
▁ta	-173
▁bo	-174
▁z	-175
▁ch	-176
▁li	-177
kwọ	-178
kwụkwọ	-179
gb	-180
tion	-181
lọ	-182
nt	-183
▁ụlọ	-184
▁tra	-185
ir	-186
tor	-187
ves	-188
▁nk	-189
ụt	-190
▁dị	-191
ụtara	-192
▁f	-193
▁w	-194
utere	-195
ard	-196
tọ	-197
▁u	-198
ou	-199
tud	-200
▁an	-201
▁stud	-202
▁ọrụ	-203
▁onye	-204
▁Onye	-205
▁nw	-206
▁has	-207
▁nwere	-208
▁vi	-209
sited	-210
▁visited	-211
os	-212
ing	-213
▁ne	-214
▁we	-215
▁taa	-216
▁ahụ	-217
▁nke	-218
▁ọma	-219
▁m	-220
ook	-221
here	-222
ve	-223
ịa	-224
eji	-225
ses	-226
▁uses	-227
ld	-228
up	-229
▁re	-230
▁akwụkwọ	-231
gbọ	-232
▁ụgbọ	-233
oc	-234
amụ	-235
ies	-236
anya	-237
▁studies	-238
wụ	-239
zu	-240
gwe	-241
▁igwe	-242
bo	-243
ii	-244
▁sold	-245
ag	-246
ụz	-247
▁ak	-248
ired	-249
▁rụz	-250
▁repa	-251
▁rụziri	-252
▁repaired	-253
sa	-254
rea	-255
tes	-256
▁kp	-257
▁kọ	-258
▁ele	-259
▁har	-260
vested	-261
▁kpọrọ	-262
▁harvested	-263
arded	-264
▁bany	-265
▁rere	-266
▁banyere	-267
▁boarded	-268
ooked	-269
▁siri	-270
▁cooked	-271
ht	-272
kes	-273
ught	-274
▁ate	-275
▁hụrụ	-276
▁riri	-277
▁likes	-278
▁bought	-279
▁zụtara	-280
dụ	-281
kwa	-282
▁to	-283
lled	-284
velled	-285
▁travelled	-286
▁da	-287
▁met	-288
ation	-289
▁data	-290
▁zutere	-291
▁elec	-292
▁ma	-293
yam	-294
ent	-295
tuli	-296
▁aka	-297
▁election	-298
ge	-299
kị	-300
ọkị	-301
▁doc	-302
ọkịta	-303
▁doctor	-304
▁ri	-305
is	-306
der	-307
▁ahịa	-308
▁trader	-309
en	-310
mp	-311
mpu	-312
mputa	-313
▁kọmputa	-314
atọ	-315
che	-316
ood	-317
▁bi	-318
▁tas	-319
▁ụtọ	-320
▁good	-321
▁tastes	-322
kapa	-323
▁osi	-324
▁rice	-325
▁osikapa	-326
arm	-327
▁ug	-328
armer	-329
▁ugbo	-330
▁farmer	-331
eds	-332
ụma	-333
educ	-334
iile	-335
▁educ	-336
▁Every	-337
▁agụma	-338
▁chọrọ	-339
▁needs	-340
▁niile	-341
▁education	-342
▁agụmakwụkwọ	-343
al	-344
fe	-345
ala	-346
arri	-347
fufe	-348
▁well	-349
▁garri	-350
▁ifufe	-351
▁ụgbọala	-352
zi	-353
cha	-354
ịcha	-355
ft	-356
▁L	-357
lan	-358
agos	-359
▁kụrụ	-360
▁plan	-361
▁Lagos	-362
▁planted	-363
kọ	-364
nc	-365
pụ	-366
va	-367
nou	-368
omp	-369
▁kw	-370
assa	-371
nced	-372
zukọ	-373
eting	-374
▁akpụ	-375
▁comp	-376
▁kwup	-377
assava	-378
▁annou	-379
▁lives	-380
▁nzukọ	-381
▁cassava	-382
▁meeting	-383
▁computer	-384
▁announced	-385
▁kwupụtara	-386
agb	-387
ang	-388
nug	-389
anwe	-390
nugu	-391
anging	-392
▁Enugu	-393
agbanwe	-394
▁changing	-395
pi	-396
gwụ	-397
tal	-398
▁gw	-399
ospi	-400
▁trea	-401
▁ọgwụ	-402
▁gwọrọ	-403
▁hospi	-404
▁Dọkịta	-405
▁treated	-406
▁hospital	-407
bu	-408
ja	-409
lu	-410
▁cl	-411
buja	-412
▁Abuja	-413
▁There	-414
oge	-415
riv	-416
▁ar	-417
▁go	-418
arly	-419
rived	-420
▁early	-421
▁rutere	-422
▁arrived	-423
▁bụ	-424
▁ji	-425
▁yam	-426
ano	-427
▁ọh	-428
▁new	-429
▁Kano	-430
▁ọhụrụ	-431
eto	-432
rows	-433
▁grows	-434
ful	-435
wer	-436
wia	-437
ware	-438
werri	-439
▁Owerri	-440
bụ	-441
ebụ	-442
▁gọ	-443
vern	-444
▁govern	-445
id	-446
ment	-447
pen	-448
was	-449
ọdụ	-450
eace	-451
▁meg	-452
▁was	-453
▁open	-454
▁Ntuli	-455
▁peace	-456
▁meghere	-457
▁peaceful	-458
chi	-459
jii	-460
▁ojii	-461
ba	-462
▁car	-463
▁ọka	-464
ble	-465
be	-466
ks	-467
arụ	-468
orks	-469
▁works	-470
to	-471
omato	-472
▁akwa	-473
▁tomato	-474
yc	-475
ycle	-476
ase	-477
oud	-478
▁ga	-479
base	-480
▁ofe	-481
▁nche	-482
▁soup	-483
▁cloud	-484
▁nchekwa	-485
▁database	-486
ha	-487
era	-488
lera	-489
ill	-490
▁echi	-491
▁will	-492
▁tomorrow	-493
▁mm	-494
at	-495
eat	-496
uzi	-497
cher	-498
▁anụ	-499
▁tea	-500
▁meat	-501
▁nkuzi	-502
▁teacher	-503
it	-504
ke	-505
un	-506
Ọn	-507
irp	-508
its	-509
ort	-510
▁On	-511
▁Ọn	-512
torm	-513
▁elu	-514
▁nwa	-515
▁oke	-516
▁sun	-517
▁ọdụ	-518
itsha	-519
▁airp	-520
▁anwụ	-521
▁storm	-522
▁Ọnịcha	-523
▁Onitsha	-524
▁airport	-525
▁student	-526
gg	-527
▁egg	-528
zo	-529
zuzo	-530
▁rain	-531
▁mmiri	-532
▁ozuzo	-533
▁bea	-534
ọs	-535
kụ	-536
ụs	-537
ftụ	-538
▁se	-539
▁sọ	-540
ouse	-541
▁ọkụ	-542
▁maụs	-543
▁soft	-544
ftụwia	-545
▁mouse	-546
▁software	-547
▁sọftụwia	-548
▁ị	-549
gwa	-550
men	-551
net	-552
anet	-553
ọmen	-554
▁ịnt	-555
▁ngwa	-556
ternet	-557
ọmenti	-558
▁ịntanet	-559
▁gọọmenti	-560
▁internet	-561
▁government	-562
aị	-563
fọ	-564
ho	-565
ig	-566
ns	-567
yp	-568
fọd	-569
jir	-570
eria	-571
hoid	-572
ịfọd	-573
▁Naị	-574
▁Nig	-575
▁bag	-576
▁typ	-577
jirịa	-578
▁agwa	-579
▁akpa	-580
▁beans	-581
▁taịfọd	-582
▁Nigeria	-583
▁typhoid	-584
▁Naịjirịa	-585
hu	-586
her	-587
▁bu	-588
▁pr	-589
▁ihu	-590
▁weat	-591
▁wind	-592
▁weather	-593
ey	-594
iz	-595
zụ	-596
iib	-597
ish	-598
ize	-599
eybo	-600
read	-601
▁ach	-602
▁azụ	-603
▁fish	-604
▁kiib	-605
▁bread	-606
▁keybo	-607
▁maize	-608
▁achịcha	-609
▁kiibọdụ	-610
▁keyboard	-611
▁isi	-612
▁ntuli	-613
tị	-614
air	-615
bsi	-616
kwu	-617
saị	-618
bsite	-619
saịtị	-620
▁oche	-621
▁chair	-622
▁weebụ	-623
▁website	-624
▁weebụsaịtị	-625
▁fe	-626
ebụl	-627
▁bus	-628
▁bọs	-629
▁nri	-630
▁fever	-631
▁table	-632
▁tebụl	-633
br	-634
▁bic	-635
▁ebe	-636
▁kwụ	-637
▁otu	-638
▁ọba	-639
brary	-640
▁bicycle	-641
▁library	-642
ep	-643
ede	-644
epp	-645
oco	-646
▁ede	-647
▁ose	-648
epper	-649
▁coco	-650
▁pepper	-651
▁cocoyam	-652
yi	-653
ịn	-654
lar	-655
inis	-656
ista	-657
▁flu	-658
▁iba	-659
▁mịn	-660
▁oyi	-661
laria	-662
▁minis	-663
▁malaria	-664
▁mịnista	-665
▁minister	-666
anọ	-667
etọ	-668
esid	-669
vanọ	-670
▁ala	-671
▁sen	-672
nator	-673
▁hard	-674
▁họdụ	-675
esident	-676
▁gọvanọ	-677
▁senetọ	-678
▁họdụwia	-679
▁senator	-680
▁governor	-681
▁hardware	-682
▁president	-683
hon	-684
ool	-685
entị	-686
hone	-687
▁ekw	-688
▁sch	-689
▁phone	-690
▁school	-691
▁ekwentị	-692
gn	-693
hug	-694
kwo	-695
ssi	-696
▁ve	-697
geta	-698
huga	-699
iabe	-700
ssign	-701
▁akwu	-702
▁book	-703
▁diabe	-704
▁shuga	-705
getable	-706
▁assign	-707
▁akwukwo	-708
▁diabetes	-709
▁vegetable	-710
▁assignment	-711
▁cho	-712
▁kọlera	-713
▁cholera	-714
xam	-715
▁mo	-716
torc	-717
▁ule	-718
xamin	-719
▁ọkada	-720
▁examin	-721
▁motorc	-722
▁motorcycle	-723
▁examination	-724
ad	-725
zọ	-726
oad	-727
▁ụzọ	-728
▁road	-729
ro	-730
ass	-731
las	-732
room	-733
▁klas	-734
▁class	-735
▁classroom	-736
anic	-737
rụzi	-738
▁mech	-739
▁nrụzi	-740
▁dọkịta	-741
▁mechanic	-742
lezi	-743
▁nlezi	-744
▁nlezianya	-745
ọọ	-746
low	-747
tri	-748
▁ob	-749
mall	-750
lowly	-751
wayọọ	-752
▁obere	-753
▁small	-754
▁nwayọọ	-755
▁slowly	-756
▁q	-757
chie	-758
▁old	-759
▁ochie	-760
▁quickly	-761
▁ree	-762
▁sell	-763
il	-764
ilor	-765
▁nwata	-766
▁tailor	-767
og	-768
mem	-769
mmer	-770
ogra	-771
▁eat	-772
▁rie	-773
memme	-774
▁mmemme	-775
▁progra	-776
▁programmer	-777
ee	-778
ng	-779
ur	-780
eer	-781
fic	-782
jin	-783
oli	-784
ọsụ	-785
▁nọ	-786
ngin	-787
rite	-788
urse	-789
▁big	-790
▁dee	-791
▁uwe	-792
ficer	-793
jinia	-794
olice	-795
▁ukwu	-796
▁engin	-797
▁nurse	-798
▁nọọsụ	-799
▁write	-800
▁police	-801
▁injinia	-802
▁officer	-803
▁engineer	-804
ci	-805
hef	-806
ier	-807
cian	-808
trik	-809
▁agha	-810
▁chef	-811
trician	-812
▁eletrik	-813
▁soldier	-814
▁electrician	-815
ast	-816
▁fast	-817
▁gaa	-818
arn	-819
uti	-820
▁le	-821
▁mụ	-822
▁zụ	-823
▁buy	-824
▁mma	-825
▁mara	-826
utiful	-827
▁learn	-828
▁beautiful	-829
ome	-830
▁bịa	-831
▁dri	-832
▁come	-833
▁ọkwọ	-834
▁driver	-835
ụọ	-836
▁gụọ	-837
▁read	-838
Ab	-839
Ad	-840
Da	-841
Dọ	-842
Em	-843
En	-844
Ev	-845
Gr	-846
Ka	-847
Ki	-848
La	-849
Ma	-850
Na	-851
Ni	-852
No	-853
Nt	-854
Ob	-855
On	-856
Ow	-857
Pe	-858
Pl	-859
Qu	-860
Th	-861
To	-862
aa	-863
ab	-864
ac	-865
ah	-866
ai	-867
ak	-868
ap	-869
au	-870
av	-871
ay	-872
az	-873
aụ	-874
bi	-875
bl	-876
bs	-877
bị	-878
bọ	-879
ca	-880
ck	-881
cl	-882
co	-883
ct	-884
cy	-885
de	-886
di	-887
dl	-888
do	-889
dr	-890
ds	-891
du	-892
dw	-893
dị	-894
dọ	-895
eb	-896
ec	-897
ef	-898
eg	-899
ej	-900
ek	-901
el	-902
em	-903
ev	-904
ew	-905
ex	-906
ez	-907
fa	-908
ff	-909
fi	-910
fl	-911
ga	-912
gh	-913
gi	-914
go	-915
gr	-916
gu	-917
gw	-918
gọ	-919
gụ	-920
hi	-921
hị	-922
họ	-923
hụ	-924
ib	-925
ie	-926
if	-927
ih	-928
ik	-929
im	-930
io	-931
iv	-932
ki	-933
kl	-934
kp	-935
ku	-936
la	-937
lo	-938
lw	-939
mi	-940
mo	-941
mị	-942
mụ	-943
nd	-944
ne	-945
ni	-946
nj	-947
▁	-948
a	-949
e	-950
r	-951
i	-952
n	-953
.	-954
o	-955
t	-956
d	-957
l	-958
s	-959
y	-960
h	-961
m	-962
w	-963
u	-964
k	-965
ụ	-966
g	-967
c	-968
ọ	-969
b	-970
v	-971
T	-972
f	-973
p	-974
ị	-975
P	-976
C	-977
z	-978
O	-979
E	-980
-	-981
A	-982
N	-983
D	-984
j	-985
M	-986
K	-987
G	-988
J	-989
Q	-990
'	-991
L	-992
Ọ	-993
x	-994
q	-995
